80800000000400865143ba06930dc614b5fc28f5f233f29628177e00000000000000c000000000000007d0000144629372701dc3502165318f20342563c63eec6a52dc92e6f31abbf5a1d1223f7a81fb51a2f93f3d7d1fb81bdbafd0b81d405561deca6653ba6c2ba8c02bbe70030100000000011777656967687465642d6571756174696f6e612d6a2d3437000021293b3b2077656967687465642d6571756174696f6e0a3b3b20696d706c656d656e746174696f6e206f662042616c616e6365722057656967687465644d617468202868747470733a2f2f6769746875622e636f6d2f62616c616e6365722d6c6162732f62616c616e6365722d76322d6d6f6e6f7265706f2f626c6f622f6d61737465722f706b672f706f6f6c2d77656967687465642f636f6e7472616374732f57656967687465644d6174682e736f6c290a0a3b3b28696d706c2d7472616974202e74726169742d6571756174696f6e2e6571756174696f6e2d7472616974290a0a3b3b20636f6e7374616e74730a3b3b0a28646566696e652d636f6e7374616e74204f4e455f382028706f77207531302075382929203b3b203820646563696d616c20706c616365730a0a28646566696e652d636f6e7374616e74206e6f2d6c69717569646974792d657272202865727220753230303229290a28646566696e652d636f6e7374616e74207765696768742d73756d2d657272202865727220753430303029290a28646566696e652d636f6e7374616e74206d61782d696e2d726174696f2d657272202865727220753430303129290a28646566696e652d636f6e7374616e74206d61782d6f75742d726174696f2d657272202865727220753430303229290a28646566696e652d636f6e7374616e74206d6174682d63616c6c2d6572722028657272203430303329290a0a3b3b206d617820696e2f6f75742061732025206f66206c69717569646974790a3b3b20544f444f3a207765206d61792077616e7420746f2072656d6f766520746869732e20546f6f206172626974726172790a28646566696e652d636f6e7374616e74204d41585f494e5f524154494f20282a2075332028706f7720753130207537292929203b3b302e3365380a28646566696e652d636f6e7374616e74204d41585f4f55545f524154494f20282a2075332028706f7720753130207537292929203b3b302e3365380a0a3b3b2064617461206d61707320616e6420766172730a3b3b0a0a3b3b20707269766174652066756e6374696f6e730a3b3b0a0a28646566696e652d7072697661746520286d696e2028782075696e74292028792075696e7429290a2020202028696620283c20782079290a2020202020202020286f6b2078290a2020202020202020286f6b2079290a20202020290a290a0a3b3b207075626c69632066756e6374696f6e730a3b3b0a3b3b0a0a3b3b206765742d696e76617269616e740a3b3b20696e76617269616e74203d20625f78205e20775f78202a20625f79205e20775f79200a28646566696e652d726561642d6f6e6c7920286765742d696e76617269616e74202862616c616e63652d782075696e7429202862616c616e63652d792075696e742920287765696768742d782075696e742920287765696768742d792075696e7429290a20202020286966202869732d657120282b207765696768742d78207765696768742d7929204f4e455f38290a2020202020202020286f6b2028756e777261702d70616e69632028636f6e74726163742d63616c6c3f202e6d6174682d66697865642d706f696e74206d756c2d646f776e200a2020202020202020202020202020202028756e777261702d70616e69632028636f6e74726163742d63616c6c3f202e6d6174682d66697865642d706f696e7420706f772d646f776e2062616c616e63652d78207765696768742d782929200a2020202020202020202020202020202028756e777261702d70616e69632028636f6e74726163742d63616c6c3f202e6d6174682d66697865642d706f696e7420706f772d646f776e2062616c616e63652d79207765696768742d7929292929290a20202020202020207765696768742d73756d2d6572720a20202020290a290a0a3b3b206765742d792d676976656e2d780a3b3b20645f79203d2064790a3b3b20625f79203d2062616c616e63652d790a3b3b20625f78203d2062616c616e63652d78202020202020202020202020202020202f2020202020202f202020202020202020202020625f78202020202020202020202020205c2020202028775f78202f20775f7929205c20202020202020202020200a3b3b20645f78203d20647820202020202020202020645f79203d20625f79202a207c202031202d207c202d2d2d2d2d2d2d2d2d2d2d2d2d2d2d2d2d2d2d2d2d2d2d2d2d2d2d20207c205e202020202020202020202020207c202020202020202020200a3b3b20775f78203d207765696768742d7820202020202020202020202020202020205c2020202020205c202020202020202820625f78202b20645f78202920202020202020202f202020202020202020202020202020202f20202020202020202020200a3b3b20775f79203d207765696768742d7920202020202020202020202020202020202020202020202020202020202020202020202020202020202020202020202020202020202020202020202020202020202020202020200a28646566696e652d726561642d6f6e6c7920286765742d792d676976656e2d78202862616c616e63652d782075696e7429202862616c616e63652d792075696e742920287765696768742d782075696e742920287765696768742d792075696e7429202864782075696e7429290a20202020286966202869732d657120282b207765696768742d78207765696768742d7929204f4e455f38290a2020202020202020286c6574200a202020202020202020202020280a20202020202020202020202020202020286d61782d696e2028756e777261702d70616e69632028636f6e74726163742d63616c6c3f202e6d6174682d66697865642d706f696e74206d756c2d646f776e2062616c616e63652d78204d41585f494e5f524154494f2929290a202020202020202020202020202020202864656e6f6d696e61746f722028756e777261702d70616e69632028636f6e74726163742d63616c6c3f202e6d6174682d66697865642d706f696e74206164642d66697865642062616c616e63652d782064782929290a2020202020202020202020202020202028626173652028756e777261702d70616e69632028636f6e74726163742d63616c6c3f202e6d6174682d66697865642d706f696e74206469762d75702062616c616e63652d782064656e6f6d696e61746f722929290a20202020202020202020202020202020286578706f6e656e742028756e777261702d70616e696320286d696e2028756e777261702d70616e69632028636f6e74726163742d63616c6c3f202e6d6174682d66697865642d706f696e74206469762d646f776e207765696768742d78207765696768742d7929292028756e777261702d70616e69632028636f6e74726163742d63616c6c3f202e6d6174682d6c6f672d657870206765742d6578702d626f756e6429292929290a2020202020202020202020202020202028706f7765722028756e777261702d70616e69632028636f6e74726163742d63616c6c3f202e6d6174682d66697865642d706f696e7420706f772d646f776e2062617365206578706f6e656e742929290a2020202020202020202020202020202028636f6d706c656d656e742028756e777261702d70616e69632028636f6e74726163742d63616c6c3f202e6d6174682d66697865642d706f696e74207375622d6669786564204f4e455f3820706f7765722929290a202020202020202020202020290a20202020202020202020202028617373657274732120283c206478206d61782d696e29206d61782d696e2d726174696f2d657272290a0a20202020202020202020202028636f6e74726163742d63616c6c3f202e6d6174682d66697865642d706f696e74206d756c2d646f776e2062616c616e63652d7920636f6d706c656d656e74290a2020202020202020290a20202020202020207765696768742d73756d2d6572720a2020202029202020200a290a0a3b3b20645f79203d206479202020202020202020202020202020202020202020202020202020202020202020202020202020202020202020202020202020202020202020202020202020202020202020202020202020200a3b3b20625f79203d2062616c616e63652d790a3b3b20625f78203d2062616c616e63652d7820202020202020202020202020202f20202f202020202020202020202020625f79202020202020202020202020205c2020202028775f79202f20775f78292020202020205c202020202020202020200a3b3b20645f78203d206478202020202020202020645f78203d20625f78202a207c20207c202d2d2d2d2d2d2d2d2d2d2d2d2d2d2d2d2d2d2d2d2d2d2d2d2d2d20207c205e202020202020202020202020202d203120207c2020202020202020200a3b3b20775f78203d207765696768742d782020202020202020202020202020205c20205c202020202020202820625f79202d20645f7920292020202020202020202f20202020202020202020202020202020202020202f202020202020202020200a3b3b20775f79203d207765696768742d7920202020202020202020202020202020202020202020202020202020202020202020202020202020202020202020202020202020202020202020200a28646566696e652d726561642d6f6e6c7920286765742d782d676976656e2d79202862616c616e63652d782075696e7429202862616c616e63652d792075696e742920287765696768742d782075696e742920287765696768742d792075696e7429202864792075696e7429290a20202020286966202869732d657120282b207765696768742d78207765696768742d7929204f4e455f38290a2020202020202020286c6574200a202020202020202020202020280a20202020202020202020202020202020286d61782d6f75742028756e777261702d70616e69632028636f6e74726163742d63616c6c3f202e6d6174682d66697865642d706f696e74206d756c2d646f776e2062616c616e63652d79204d41585f4f55545f524154494f2929290a202020202020202020202020202020202864656e6f6d696e61746f722028756e777261702d70616e69632028636f6e74726163742d63616c6c3f202e6d6174682d66697865642d706f696e74207375622d66697865642062616c616e63652d792064792929290a2020202020202020202020202020202028626173652028756e777261702d70616e69632028636f6e74726163742d63616c6c3f202e6d6174682d66697865642d706f696e74206469762d75702062616c616e63652d792064656e6f6d696e61746f722929290a20202020202020202020202020202020286578706f6e656e742028756e777261702d70616e696320286d696e2028756e777261702d70616e69632028636f6e74726163742d63616c6c3f202e6d6174682d66697865642d706f696e74206469762d646f776e207765696768742d79207765696768742d7829292028756e777261702d70616e69632028636f6e74726163742d63616c6c3f202e6d6174682d6c6f672d657870206765742d6578702d626f756e6429292929290a2020202020202020202020202020202028706f7765722028756e777261702d70616e69632028636f6e74726163742d63616c6c3f202e6d6174682d66697865642d706f696e7420706f772d646f776e2062617365206578706f6e656e742929290a2020202020202020202020202020202028726174696f2028756e777261702d70616e69632028636f6e74726163742d63616c6c3f202e6d6174682d66697865642d706f696e74207375622d666978656420706f776572204f4e455f382929290a202020202020202020202020290a20202020202020202020202028617373657274732120283c206479206d61782d6f757429206d61782d6f75742d726174696f2d657272290a20202020202020202020202028636f6e74726163742d63616c6c3f202e6d6174682d66697865642d706f696e74206d756c2d75702062616c616e63652d7820726174696f290a2020202020202020290a20202020202020207765696768742d73756d2d6572720a20202020290a290a0a3b3b20645f78203d2064780a3b3b20645f79203d206479200a3b3b20625f78203d2062616c616e63652d780a3b3b20625f79203d2062616c616e63652d790a3b3b20775f78203d207765696768742d78200a3b3b20775f79203d207765696768742d790a3b3b2073706f74203d20625f78202a20775f79202f20625f79202f20775f780a3b3b20645f78203d20625f78202a2028287072696365202f2073706f7429205e20775f79202d2031290a28646566696e652d726561642d6f6e6c7920286765742d782d676976656e2d7072696365202862616c616e63652d782075696e7429202862616c616e63652d792075696e742920287765696768742d782075696e742920287765696768742d792075696e7429202870726963652075696e7429290a20202020286966202869732d657120282b207765696768742d78207765696768742d7929204f4e455f38290a2020202020202020286c6574200a202020202020202020202020280a202020202020202020202020202020202864656e6f6d696e61746f722028756e777261702d70616e69632028636f6e74726163742d63616c6c3f202e6d6174682d66697865642d706f696e74206d756c2d75702062616c616e63652d79207765696768742d782929290a20202020202020202020202020202020286e756d657261746f722028756e777261702d70616e69632028636f6e74726163742d63616c6c3f202e6d6174682d66697865642d706f696e74206d756c2d646f776e2062616c616e63652d78207765696768742d792929290a202020202020202020202020202020202873706f742028756e777261702d70616e69632028636f6e74726163742d63616c6c3f202e6d6174682d66697865642d706f696e74206469762d646f776e206e756d657261746f722064656e6f6d696e61746f722929290a2020202020202020202020202020202028626173652028756e777261702d70616e69632028636f6e74726163742d63616c6c3f202e6d6174682d66697865642d706f696e74206469762d75702070726963652073706f742929290a2020202020202020202020202020202028706f7765722028756e777261702d70616e69632028636f6e74726163742d63616c6c3f202e6d6174682d66697865642d706f696e7420706f772d646f776e2062617365207765696768742d792929290a2020202020202020202020202020202028726174696f2028756e777261702d70616e69632028636f6e74726163742d63616c6c3f202e6d6174682d66697865642d706f696e74207375622d666978656420706f776572204f4e455f382929292020202020202020202020200a202020202020202020202020290a20202020202020202020202028636f6e74726163742d63616c6c3f202e6d6174682d66697865642d706f696e74206d756c2d75702062616c616e63652d7820726174696f290a2020202020202020290a20202020202020207765696768742d73756d2d657272202020200a20202020292020200a290a0a28646566696e652d726561642d6f6e6c7920286765742d746f6b656e2d676976656e2d706f736974696f6e202862616c616e63652d782075696e7429202862616c616e63652d792075696e742920287765696768742d782075696e742920287765696768742d792075696e74292028746f74616c2d737570706c792075696e7429202864782075696e7429202864792075696e7429290a20202020286966202869732d657120282b207765696768742d78207765696768742d7929204f4e455f38290a2020202020202020286f6b0a202020202020202020202020286966202869732d657120746f74616c2d737570706c79207530290a20202020202020202020202020202020286c65740a2020202020202020202020202020202020202020280a2020202020202020202020202020202020202020202020203b3b20696620746f74616c2d737570706c79206973207a65726f0a2020202020202020202020202020202020202020202020203b3b0a2020202020202020202020202020202020202020202020203b3b20696e76617269616e74203d2028625f78205e20775f7829202a2028625f79205e20775f79290a2020202020202020202020202020202020202020202020203b3b0a2020202020202020202020202020202020202020202020203b3b2864792d77792028756e777261702d70616e69632028636f6e74726163742d63616c6c3f202e6d6174682d66697865642d706f696e7420706f772d646f776e206479207765696768742d792929290a2020202020202020202020202020202020202020202020203b3b2864782d77782028756e777261702d70616e69632028636f6e74726163742d63616c6c3f202e6d6174682d66697865642d706f696e7420706f772d646f776e206478207765696768742d782929290a2020202020202020202020202020202020202020202020203b3b28696e76617269616e742028756e777261702d70616e69632028636f6e74726163742d63616c6c3f202e6d6174682d66697865642d706f696e74206d756c2d646f776e2064782d77782064792d77792929290a20202020202020202020202020202020202020202020202028696e76617269616e742028756e777261702d70616e696320286765742d696e76617269616e74206478206479207765696768742d78207765696768742d792929290a20202020202020202020202020202020202020202920202020202020202020202020202020202020200a20202020202020202020202020202020202020207b746f6b656e3a20696e76617269616e742c2064793a2064797d0a20202020202020202020202020202020290a20202020202020202020202020202020286c65740a2020202020202020202020202020202020202020280a2020202020202020202020202020202020202020202020203b3b20696620746f74616c2d737570706c79203e207a65726f2c2077652063616c63756c6174652064792070726f706f7274696f6e616c20746f206478202f2062616c616e63652d780a202020202020202020202020202020202020202020202020286e65772d64792028756e777261702d70616e69632028636f6e74726163742d63616c6c3f202e6d6174682d66697865642d706f696e74206d756c2d646f776e2062616c616e63652d79200a202020202020202020202020202020202020202020202020202020202020202028756e777261702d70616e69632028636f6e74726163742d63616c6c3f202e6d6174682d66697865642d706f696e74206469762d646f776e2064782062616c616e63652d7829292929290a20202020202020202020202020202020202020202020202028746f6b656e2028756e777261702d70616e69632028636f6e74726163742d63616c6c3f202e6d6174682d66697865642d706f696e74206d756c2d646f776e20746f74616c2d737570706c7920200a202020202020202020202020202020202020202020202020202020202020202028756e777261702d70616e69632028636f6e74726163742d63616c6c3f202e6d6174682d66697865642d706f696e74206469762d646f776e2064782062616c616e63652d7829292929290a2020202020202020202020202020202020202020290a20202020202020202020202020202020202020207b746f6b656e3a20746f6b656e2c2064793a206e65772d64797d0a20202020202020202020202020202020292020200a202020202020202020202020290a2020202020202020290a20202020202020207765696768742d73756d2d657272202020200a2020202029202020200a290a0a28646566696e652d726561642d6f6e6c7920286765742d706f736974696f6e2d676976656e2d6d696e74202862616c616e63652d782075696e7429202862616c616e63652d792075696e742920287765696768742d782075696e742920287765696768742d792075696e74292028746f74616c2d737570706c792075696e74292028746f6b656e2075696e7429290a20202020286966202869732d657120282b207765696768742d78207765696768742d7929204f4e455f38290a202020202020202028696620283e20746f74616c2d737570706c79207530290a202020202020202020202020286c65740a20202020202020202020202020202020282020200a20202020202020202020202020202020202020203b3b2066697273742063616c63756c6174652077686174202520796f75206e65656420746f206d696e740a202020202020202020202020202020202020202028746f6b656e2d737570706c792028756e777261702d70616e69632028636f6e74726163742d63616c6c3f202e6d6174682d66697865642d706f696e74206469762d646f776e20746f6b656e20746f74616c2d737570706c792929290a20202020202020202020202020202020202020203b3b2063616c63756c6174652064782061732025206f662062616c616e63652d7820636f72726573706f6e64696e6720746f202520796f75206e65656420746f206d696e740a20202020202020202020202020202020202020202864782028756e777261702d70616e69632028636f6e74726163742d63616c6c3f202e6d6174682d66697865642d706f696e74206d756c2d646f776e2062616c616e63652d7820746f6b656e2d737570706c792929290a20202020202020202020202020202020202020203b3b2063616c63756c617465206479207573696e672077656967687420726174696f0a20202020202020202020202020202020202020202877792d77782028756e777261702d70616e69632028636f6e74726163742d63616c6c3f202e6d6174682d66697865642d706f696e74206469762d646f776e207765696768742d79207765696768742d782929290a20202020202020202020202020202020202020202864792028756e777261702d70616e69632028636f6e74726163742d63616c6c3f202e6d6174682d66697865642d706f696e74206d756c2d646f776e2064782077792d77782929290a20202020202020202020202020202020290a20202020202020202020202020202020286f6b207b64783a2064782c2064793a2064797d290a202020202020202020202020290a2020202020202020202020206e6f2d6c69717569646974792d6572720a2020202020202020290a20202020202020207765696768742d73756d2d6572720a20202020290a290a0a28646566696e652d726561642d6f6e6c7920286765742d706f736974696f6e2d676976656e2d6275726e202862616c616e63652d782075696e7429202862616c616e63652d792075696e742920287765696768742d782075696e742920287765696768742d792075696e74292028746f74616c2d737570706c792075696e74292028746f6b656e2075696e7429290a20202020286765742d706f736974696f6e2d676976656e2d6d696e742062616c616e63652d782062616c616e63652d79207765696768742d78207765696768742d7920746f74616c2d737570706c7920746f6b656e290a29
