80800000000400865143ba06930dc614b5fc28f5f233f29628177e00000000000000d2000000000000c350000100d01b024454d8780a42044c3ae83e1b1891fb18617db23254769e64b0cdd0a72470bb3e47a505d0a92af3b37512d42db75bab09e0a8bf3f84ef6aa7db499abd030100000000011766697865642d7765696768742d706f6f6c612d6a2d343900005c26287573652d74726169742066742d7472616974202e74726169742d7369702d3031302e7369702d3031302d7472616974290a287573652d747261697420706f6f6c2d746f6b656e2d7472616974202e74726169742d706f6f6c2d746f6b656e2e706f6f6c2d746f6b656e2d7472616974290a0a3b3b2066697865642d7765696768742d706f6f6c0a3b3b2046697865642057656967687420506f6f6c20697320616e207265666572656e636520706f6f6c20666f722077686963682063616e206265207573656420617320612074656d706c617465206f6e2066757475726520776f726b732e200a3b3b0a3b3b20544f444f3a20746f6b656e2d782f746f6b656e2d7920706f6f6c203d3d20746f6b656e2d792f746f6b656e2d7820706f6f6c0a0a28646566696e652d636f6e7374616e74204f4e455f382028706f77207531302075382929203b3b203820646563696d616c20706c616365730a0a28646566696e652d636f6e7374616e7420617574686f7269736174696f6e2d657272202865727220753130303029290a28646566696e652d636f6e7374616e7420696e76616c69642d706f6f6c2d657272202865727220753230303129290a28646566696e652d636f6e7374616e74206e6f2d6c69717569646974792d657272202865727220753230303229290a28646566696e652d636f6e7374616e7420696e76616c69642d6c69717569646974792d657272202865727220753230303329290a28646566696e652d636f6e7374616e74207472616e736665722d782d6661696c65642d657272202865727220753330303129290a28646566696e652d636f6e7374616e74207472616e736665722d792d6661696c65642d657272202865727220753330303229290a28646566696e652d636f6e7374616e7420706f6f6c2d616c72656164792d6578697374732d657272202865727220753230303029290a28646566696e652d636f6e7374616e7420746f6f2d6d616e792d706f6f6c732d657272202865727220753230303429290a28646566696e652d636f6e7374616e742070657263656e742d677265617465722d7468616e2d6f6e65202865727220753530303029290a28646566696e652d636f6e7374616e7420696e76616c69642d62616c616e63652d657272202865727220753230303829290a28646566696e652d636f6e7374616e7420696e76616c69642d746f6b656e2d657272202865727220753230303729290a28646566696e652d636f6e7374616e74206e6f2d6665652d782d657272202865727220753230303529290a28646566696e652d636f6e7374616e74206e6f2d6665652d792d657272202865727220753230303629290a28646566696e652d636f6e7374616e742077656967687465642d6571756174696f6e2d63616c6c2d657272202865727220753230303929290a28646566696e652d636f6e7374616e74206d6174682d63616c6c2d657272202865727220753230313029290a28646566696e652d636f6e7374616e7420696e7465726e616c2d66756e6374696f6e2d63616c6c2d657272202865727220753130303129290a0a3b3b2064617461206d61707320616e6420766172730a28646566696e652d6d617020706f6f6c732d6d61700a20207b20706f6f6c2d69643a2075696e74207d0a20207b0a20202020746f6b656e2d783a207072696e636970616c2c0a20202020746f6b656e2d793a207072696e636970616c2c0a202020207765696768742d783a2075696e742c0a202020207765696768742d793a2075696e740a20207d0a290a0a28646566696e652d6d617020706f6f6c732d646174612d6d61700a20207b0a20202020746f6b656e2d783a207072696e636970616c2c0a20202020746f6b656e2d793a207072696e636970616c2c0a202020207765696768742d783a2075696e742c0a202020207765696768742d793a2075696e740a20207d0a20207b0a20202020746f74616c2d737570706c793a2075696e742c0a2020202062616c616e63652d783a2075696e742c0a2020202062616c616e63652d793a2075696e742c0a202020206665652d62616c616e63652d783a2075696e742c0a202020206665652d62616c616e63652d793a2075696e742c0a202020206665652d746f2d616464726573733a207072696e636970616c2c0a20202020706f6f6c2d746f6b656e3a207072696e636970616c2c0a202020206665652d726174652d783a2075696e742c0a202020206665652d726174652d793a2075696e740a20207d0a290a0a28646566696e652d646174612d76617220706f6f6c2d636f756e742075696e74207530290a28646566696e652d646174612d76617220706f6f6c732d6c69737420286c69737420323030302075696e742920286c69737429290a0a3b3b20696d706c656d656e742074726169742d706f6f6c0a28646566696e652d726561642d6f6e6c7920286765742d706f6f6c2d636f756e74290a20202020286f6b20287661722d67657420706f6f6c2d636f756e7429290a290a0a28646566696e652d726561642d6f6e6c7920286765742d706f6f6c2d636f6e7472616374732028706f6f6c2d69642075696e7429290a0a20202020286c65740a2020202020202020280a20202020202020202020202028706f6f6c20286d61702d6765743f20706f6f6c732d6d6170207b706f6f6c2d69643a20706f6f6c2d69647d29290a20202020202020290a2020202020202020286966202869732d736f6d6520706f6f6c290a202020202020202020202020286f6b20706f6f6c290a202020202020202020202020696e76616c69642d706f6f6c2d6572720a20202020202020290a202020290a290a0a28646566696e652d726561642d6f6e6c7920286765742d706f6f6c73290a20202020286f6b20286d6170206765742d706f6f6c2d636f6e74726163747320287661722d67657420706f6f6c732d6c6973742929290a290a0a3b3b206164646974696f6e616c2066756e6374696f6e730a28646566696e652d726561642d6f6e6c7920286765742d706f6f6c2d64657461696c732028746f6b656e2d782d7472616974203c66742d74726169743e292028746f6b656e2d792d7472616974203c66742d74726169743e2920287765696768742d782075696e742920287765696768742d792075696e7429290a20202020286c6574200a2020202020202020280a20202020202020202020202028746f6b656e2d782028636f6e74726163742d6f6620746f6b656e2d782d747261697429290a20202020202020202020202028746f6b656e2d792028636f6e74726163742d6f6620746f6b656e2d792d747261697429290a20202020202020202020202028706f6f6c20286d61702d6765743f20706f6f6c732d646174612d6d6170207b20746f6b656e2d783a20746f6b656e2d782c20746f6b656e2d793a20746f6b656e2d792c207765696768742d783a207765696768742d782c207765696768742d793a207765696768742d79207d29290a20202020202020290a2020202020202020286966202869732d736f6d6520706f6f6c290a202020202020202020202020286f6b20706f6f6c290a202020202020202020202020696e76616c69642d706f6f6c2d6572720a20202020202020290a202020290a290a0a3b3b20676574206f766572616c6c2062616c616e63657320666f722074686520706169720a28646566696e652d7075626c696320286765742d62616c616e6365732028746f6b656e2d782d7472616974203c66742d74726169743e292028746f6b656e2d792d7472616974203c66742d74726169743e2920287765696768742d782075696e742920287765696768742d792075696e7429290a2020286c65740a20202020280a20202020202028746f6b656e2d782028636f6e74726163742d6f6620746f6b656e2d782d747261697429290a20202020202028746f6b656e2d792028636f6e74726163742d6f6620746f6b656e2d792d747261697429290a20202020202028706f6f6c2028756e777261702120286d61702d6765743f20706f6f6c732d646174612d6d6170207b20746f6b656e2d783a20746f6b656e2d782c20746f6b656e2d793a20746f6b656e2d792c207765696768742d783a207765696768742d782c207765696768742d793a207765696768742d7920207d29202865727220696e76616c69642d706f6f6c2d6572722929290a20202020290a20202020286f6b207b62616c616e63652d783a20286765742062616c616e63652d7820706f6f6c292c2062616c616e63652d793a20286765742062616c616e63652d7920706f6f6c297d290a2020290a290a0a28646566696e652d7075626c696320286372656174652d706f6f6c2028746f6b656e2d782d7472616974203c66742d74726169743e292028746f6b656e2d792d7472616974203c66742d74726169743e2920287765696768742d782075696e742920287765696768742d792075696e742920287468652d706f6f6c2d746f6b656e203c706f6f6c2d746f6b656e2d74726169743e29202864782075696e7429202864792075696e742929200a20202020286c65740a2020202020202020280a20202020202020202020202028746f6b656e2d782028636f6e74726163742d6f6620746f6b656e2d782d747261697429290a20202020202020202020202028746f6b656e2d792028636f6e74726163742d6f6620746f6b656e2d792d747261697429290a20202020202020202020202028706f6f6c2d696420282b20287661722d67657420706f6f6c2d636f756e742920753129290a20202020202020202020202028706f6f6c2d64617461207b0a20202020202020202020202020202020746f74616c2d737570706c793a2075302c0a2020202020202020202020202020202062616c616e63652d783a2075302c0a2020202020202020202020202020202062616c616e63652d793a2075302c0a202020202020202020202020202020206665652d62616c616e63652d783a2075302c0a202020202020202020202020202020206665652d62616c616e63652d793a2075302c0a202020202020202020202020202020206665652d746f2d616464726573733a2028636f6e74726163742d6f66207468652d706f6f6c2d746f6b656e292c0a20202020202020202020202020202020706f6f6c2d746f6b656e3a2028636f6e74726163742d6f66207468652d706f6f6c2d746f6b656e292c0a202020202020202020202020202020206665652d726174652d783a2075302c0a202020202020202020202020202020206665652d726174652d793a2075300a2020202020202020202020207d290a20202020202020290a20202020202020202861737365727473210a20202020202020202020202028616e640a202020202020202020202020202020202869732d6e6f6e6520286d61702d6765743f20706f6f6c732d646174612d6d6170207b20746f6b656e2d783a20746f6b656e2d782c20746f6b656e2d793a20746f6b656e2d792c207765696768742d783a207765696768742d782c207765696768742d793a207765696768742d79207d29290a202020202020202020202020202020202869732d6e6f6e6520286d61702d6765743f20706f6f6c732d646174612d6d6170207b20746f6b656e2d783a20746f6b656e2d792c20746f6b656e2d793a20746f6b656e2d782c207765696768742d783a207765696768742d792c207765696768742d793a207765696768742d78207d29290a2020202020202020202020290a202020202020202020202020706f6f6c2d616c72656164792d6578697374732d6572720a20202020202020290a0a2020202020202020286d61702d73657420706f6f6c732d6d6170207b20706f6f6c2d69643a20706f6f6c2d6964207d207b20746f6b656e2d783a20746f6b656e2d782c20746f6b656e2d793a20746f6b656e2d792c207765696768742d783a207765696768742d782c207765696768742d793a207765696768742d79207d290a2020202020202020286d61702d73657420706f6f6c732d646174612d6d6170207b20746f6b656e2d783a20746f6b656e2d782c20746f6b656e2d793a20746f6b656e2d792c207765696768742d783a207765696768742d782c207765696768742d793a207765696768742d79207d20706f6f6c2d64617461290a20202020202020200a2020202020202020287661722d73657420706f6f6c732d6c6973742028756e7772617021202861732d6d61782d6c656e3f2028617070656e6420287661722d67657420706f6f6c732d6c6973742920706f6f6c2d6964292075323030302920746f6f2d6d616e792d706f6f6c732d65727229290a2020202020202020287661722d73657420706f6f6c2d636f756e7420706f6f6c2d6964290a20202020202020203b3b204465706c6f7965722073686f756c6420696e6a6563742074686520696e697469616c20636f696e7320746f2074686520706f6f6c0a2020202020202020287472792120286164642d746f2d706f736974696f6e20746f6b656e2d782d747261697420746f6b656e2d792d7472616974207765696768742d78207765696768742d79207468652d706f6f6c2d746f6b656e20647820647929290a2020202020202020287072696e74207b206f626a6563743a2022706f6f6c222c20616374696f6e3a202263726561746564222c20646174613a20706f6f6c2d64617461207d290a2020202020202020286f6b2074727565290a202020290a290a0a28646566696e652d7075626c696320286164642d746f2d706f736974696f6e2028746f6b656e2d782d7472616974203c66742d74726169743e292028746f6b656e2d792d7472616974203c66742d74726169743e2920287765696768742d782075696e742920287765696768742d792075696e742920287468652d706f6f6c2d746f6b656e203c706f6f6c2d746f6b656e2d74726169743e29202864782075696e7429202864792075696e7429290a20202020286c65740a2020202020202020280a20202020202020202020202028746f6b656e2d782028636f6e74726163742d6f6620746f6b656e2d782d747261697429290a20202020202020202020202028746f6b656e2d792028636f6e74726163742d6f6620746f6b656e2d792d747261697429290a20202020202020202020202028706f6f6c2028756e777261702120286d61702d6765743f20706f6f6c732d646174612d6d6170207b20746f6b656e2d783a20746f6b656e2d782c20746f6b656e2d793a20746f6b656e2d792c207765696768742d783a207765696768742d782c207765696768742d793a207765696768742d79207d2920696e76616c69642d706f6f6c2d65727229290a2020202020202020202020202862616c616e63652d7820286765742062616c616e63652d7820706f6f6c29290a2020202020202020202020202862616c616e63652d7920286765742062616c616e63652d7920706f6f6c29290a20202020202020202020202028746f74616c2d737570706c79202867657420746f74616c2d737570706c7920706f6f6c29290a202020202020202020202020286164642d646174612028756e777261702120286765742d746f6b656e2d676976656e2d706f736974696f6e20746f6b656e2d782d747261697420746f6b656e2d792d7472616974207765696768742d78207765696768742d792064782064792920696e7465726e616c2d66756e6374696f6e2d63616c6c2d65727229290a202020202020202020202020286e65772d737570706c79202867657420746f6b656e206164642d6461746129290a202020202020202020202020286e65772d64792028676574206479206164642d6461746129290a20202020202020202020202028706f6f6c2d7570646174656420286d6572676520706f6f6c207b0a20202020202020202020202020202020746f74616c2d737570706c793a2028756e77726170212028636f6e74726163742d63616c6c3f202e6d6174682d66697865642d706f696e74206164642d6669786564206e65772d737570706c7920746f74616c2d737570706c7929206d6174682d63616c6c2d657272292c0a2020202020202020202020202020202062616c616e63652d783a2028756e77726170212028636f6e74726163742d63616c6c3f202e6d6174682d66697865642d706f696e74206164642d66697865642062616c616e63652d7820647829206d6174682d63616c6c2d657272292c0a2020202020202020202020202020202062616c616e63652d793a2028756e77726170212028636f6e74726163742d63616c6c3f202e6d6174682d66697865642d706f696e74206164642d66697865642062616c616e63652d79206e65772d647929206d6174682d63616c6c2d657272290a2020202020202020202020207d29290a20202020202020290a0a20202020202020202861737365727473212028616e6420283e2064782075302920283e206e65772d6479207530292920696e76616c69642d6c69717569646974792d657272290a0a20202020202020203b3b2073656e64207820746f207661756c740a20202020202020203b3b286173736572747321202869732d6f6b2028636f6e74726163742d63616c6c3f20746f6b656e2d782d7472616974207472616e736665722064782074782d73656e646572202e616c65782d7661756c74206e6f6e652929207472616e736665722d782d6661696c65642d657272290a20202020202020203b3b2073656e64207920746f207661756c740a20202020202020203b3b286173736572747321202869732d6f6b2028636f6e74726163742d63616c6c3f20746f6b656e2d792d7472616974207472616e73666572206e65772d64792074782d73656e646572202e616c65782d7661756c74206e6f6e652929207472616e736665722d792d6661696c65642d657272290a20202020202020200a202020202020202028756e77726170212028636f6e74726163742d63616c6c3f20746f6b656e2d782d7472616974207472616e736665722064782074782d73656e646572202e616c65782d7661756c74206e6f6e6529207472616e736665722d782d6661696c65642d657272290a202020202020202028756e77726170212028636f6e74726163742d63616c6c3f20746f6b656e2d792d7472616974207472616e73666572206e65772d64792074782d73656e646572202e616c65782d7661756c74206e6f6e6529207472616e736665722d792d6661696c65642d657272290a0a20202020202020203b3b206d696e7420706f6f6c20746f6b656e20616e642073656e6420746f2074782d73656e6465720a2020202020202020286d61702d73657420706f6f6c732d646174612d6d6170207b20746f6b656e2d783a20746f6b656e2d782c20746f6b656e2d793a20746f6b656e2d792c207765696768742d783a207765696768742d782c207765696768742d793a207765696768742d79207d20706f6f6c2d75706461746564290a202020202020202028747279212028636f6e74726163742d63616c6c3f207468652d706f6f6c2d746f6b656e206d696e742074782d73656e646572206e65772d737570706c7929290a20202020202020203b3b28747279212028636f6e74726163742d63616c6c3f202e616c65782d6d756c74697369672d7265676973747279206d696e742d746f6b656e206e65772d737570706c792074782d73656e64657229290a2020202020202020287072696e74207b206f626a6563743a2022706f6f6c222c20616374696f6e3a20226c69717569646974792d6164646564222c20646174613a20706f6f6c2d75706461746564207d290a2020202020202020286f6b2074727565290a202020290a29202020200a0a28646566696e652d7075626c696320287265647563652d706f736974696f6e2028746f6b656e2d782d7472616974203c66742d74726169743e292028746f6b656e2d792d7472616974203c66742d74726169743e2920287765696768742d782075696e742920287765696768742d792075696e742920287468652d706f6f6c2d746f6b656e203c706f6f6c2d746f6b656e2d74726169743e29202870657263656e742075696e7429290a2020202028696620283c3d2070657263656e74204f4e455f38290a2020202020202020286c65740a202020202020202020202020280a2020202020202020202020202020202028746f6b656e2d782028636f6e74726163742d6f6620746f6b656e2d782d747261697429290a2020202020202020202020202020202028746f6b656e2d792028636f6e74726163742d6f6620746f6b656e2d792d747261697429290a2020202020202020202020202020202028706f6f6c2028756e777261702120286d61702d6765743f20706f6f6c732d646174612d6d6170207b20746f6b656e2d783a20746f6b656e2d782c20746f6b656e2d793a20746f6b656e2d792c207765696768742d783a207765696768742d782c207765696768742d793a207765696768742d79207d2920696e76616c69642d706f6f6c2d65727229290a202020202020202020202020202020202862616c616e63652d7820286765742062616c616e63652d7820706f6f6c29290a202020202020202020202020202020202862616c616e63652d7920286765742062616c616e63652d7920706f6f6c29290a20202020202020202020202020202020287368617265732028756e77726170212028636f6e74726163742d63616c6c3f202e6d6174682d66697865642d706f696e74206d756c2d646f776e2028756e77726170212028636f6e74726163742d63616c6c3f207468652d706f6f6c2d746f6b656e206765742d62616c616e63652074782d73656e64657229206d6174682d63616c6c2d657272292070657263656e7429206d6174682d63616c6c2d65727229290a2020202020202020202020202020202028746f74616c2d737570706c79202867657420746f74616c2d737570706c7920706f6f6c29290a20202020202020202020202020202020287265647563652d646174612028756e777261702120286765742d706f736974696f6e2d676976656e2d6275726e20746f6b656e2d782d747261697420746f6b656e2d792d7472616974207765696768742d78207765696768742d79207368617265732920696e7465726e616c2d66756e6374696f6e2d63616c6c2d65727229290a202020202020202020202020202020202864782028676574206478207265647563652d6461746129290a202020202020202020202020202020202864792028676574206479207265647563652d6461746129290a2020202020202020202020202020202028706f6f6c2d7570646174656420286d6572676520706f6f6c207b0a2020202020202020202020202020202020202020746f74616c2d737570706c793a2028756e77726170212028636f6e74726163742d63616c6c3f202e6d6174682d66697865642d706f696e74207375622d666978656420746f74616c2d737570706c792073686172657329206d6174682d63616c6c2d657272292c0a202020202020202020202020202020202020202062616c616e63652d783a2028756e77726170212028636f6e74726163742d63616c6c3f202e6d6174682d66697865642d706f696e74207375622d666978656420286765742062616c616e63652d7820706f6f6c2920647829206d6174682d63616c6c2d657272292c0a202020202020202020202020202020202020202062616c616e63652d793a2028756e77726170212028636f6e74726163742d63616c6c3f202e6d6174682d66697865642d706f696e74207375622d666978656420286765742062616c616e63652d7920706f6f6c2920647929206d6174682d63616c6c2d657272290a20202020202020202020202020202020202020207d290a20202020202020202020202020202020290a202020202020202020202020290a20202020202020200a2020202020202020202020203b3b20544f444f203a204e65656420476c6f62616c20636f6e7374616e74206f66207661756c7420616e6420636865636b20696620746865207661756c742069732076616c6964207573696e67206173736572742e200a20202020202020200a2020202020202020202020203b3b2073656e6420782066726f6d207661756c740a2020202020202020202020203b3b286173736572747321202869732d6f6b2028636f6e74726163742d63616c6c3f20746f6b656e2d782d7472616974207472616e73666572206478202e616c65782d7661756c742074782d73656e646572206e6f6e652929207472616e736665722d782d6661696c65642d657272290a2020202020202020202020203b3b2073656e6420792066726f6d207661756c740a2020202020202020202020203b3b286173736572747321202869732d6f6b2028636f6e74726163742d63616c6c3f20746f6b656e2d792d7472616974207472616e73666572206479202e616c65782d7661756c742074782d73656e646572206e6f6e652929207472616e736665722d792d6661696c65642d657272290a0a20202020202020202020202028756e77726170212028636f6e74726163742d63616c6c3f20746f6b656e2d782d7472616974207472616e73666572206478202e616c65782d7661756c742074782d73656e646572206e6f6e6529207472616e736665722d782d6661696c65642d657272290a20202020202020202020202028756e77726170212028636f6e74726163742d63616c6c3f20746f6b656e2d792d7472616974207472616e73666572206479202e616c65782d7661756c742074782d73656e646572206e6f6e6529207472616e736665722d792d6661696c65642d657272290a0a0a202020202020202020202020286d61702d73657420706f6f6c732d646174612d6d6170207b20746f6b656e2d783a20746f6b656e2d782c20746f6b656e2d793a20746f6b656e2d792c207765696768742d783a207765696768742d782c207765696768742d793a207765696768742d79207d20706f6f6c2d75706461746564290a0a20202020202020202020202028747279212028636f6e74726163742d63616c6c3f207468652d706f6f6c2d746f6b656e206275726e2074782d73656e6465722073686172657329290a2020202020202020202020203b3b28747279212028636f6e74726163742d63616c6c3f202e616c65782d6d756c74697369672d7265676973747279206275726e2d746f6b656e206e65772d737570706c792074782d73656e64657229290a0a202020202020202020202020287072696e74207b206f626a6563743a2022706f6f6c222c20616374696f6e3a20226c69717569646974792d72656d6f766564222c20646174613a20706f6f6c2d75706461746564207d290a202020202020202020202020286f6b207b64783a2064782c2064793a2064797d290a2020202020202020290a202020202020202070657263656e742d677265617465722d7468616e2d6f6e650a20202020290a290a0a28646566696e652d7075626c69632028737761702d782d666f722d792028746f6b656e2d782d7472616974203c66742d74726169743e292028746f6b656e2d792d7472616974203c66742d74726169743e2920287765696768742d782075696e742920287765696768742d792075696e7429202864782075696e742929202020200a20202020286c65740a2020202020202020280a20202020202020202020202028746f6b656e2d782028636f6e74726163742d6f6620746f6b656e2d782d747261697429290a20202020202020202020202028746f6b656e2d792028636f6e74726163742d6f6620746f6b656e2d792d747261697429290a20202020202020202020202028706f6f6c2028756e777261702120286d61702d6765743f20706f6f6c732d646174612d6d6170207b20746f6b656e2d783a20746f6b656e2d782c20746f6b656e2d793a20746f6b656e2d792c207765696768742d783a207765696768742d782c207765696768742d793a207765696768742d79207d2920696e76616c69642d706f6f6c2d65727229290a2020202020202020202020202862616c616e63652d7820286765742062616c616e63652d7820706f6f6c29290a2020202020202020202020202862616c616e63652d7920286765742062616c616e63652d7920706f6f6c29290a202020202020202020202020286665652d726174652d782028676574206665652d726174652d7820706f6f6c29290a0a2020202020202020202020203b3b20666565203d206478202a206665652d726174652d780a202020202020202020202020286665652028756e77726170212028636f6e74726163742d63616c6c3f202e6d6174682d66697865642d706f696e74206d756c2d7570206478206665652d726174652d7829206d6174682d63616c6c2d65727229290a2020202020202020202020202864782d6e65742d666565732028756e77726170212028636f6e74726163742d63616c6c3f202e6d6174682d66697865642d706f696e74207375622d66697865642064782066656529206d6174682d63616c6c2d65727229290a202020200a2020202020202020202020202864792028756e777261702120286765742d792d676976656e2d7820746f6b656e2d782d747261697420746f6b656e2d792d7472616974207765696768742d78207765696768742d792064782d6e65742d666565732920696e7465726e616c2d66756e6374696f6e2d63616c6c2d65727229290a0a20202020202020202020202028706f6f6c2d757064617465640a20202020202020202020202020202020286d6572676520706f6f6c0a20202020202020202020202020202020202020207b0a202020202020202020202020202020202020202062616c616e63652d783a2028756e77726170212028636f6e74726163742d63616c6c3f202e6d6174682d66697865642d706f696e74206164642d666978656420286765742062616c616e63652d7820706f6f6c292064782d6e65742d6665657329206d6174682d63616c6c2d657272292c0a202020202020202020202020202020202020202062616c616e63652d793a2028756e77726170212028636f6e74726163742d63616c6c3f202e6d6174682d66697865642d706f696e74207375622d666978656420286765742062616c616e63652d7920706f6f6c2920647929206d6174682d63616c6c2d657272292c0a20202020202020202020202020202020202020206665652d62616c616e63652d783a2028756e77726170212028636f6e74726163742d63616c6c3f202e6d6174682d66697865642d706f696e74206164642d6669786564206665652028676574206665652d62616c616e63652d7820706f6f6c2929206d6174682d63616c6c2d657272290a20202020202020202020202020202020202020207d0a20202020202020202020202020202020290a202020202020202020202020290a2020202020202020290a202020202020200a202020202020202028617373657274732120283e2064782075302920696e76616c69642d6c69717569646974792d65727229200a20202020202020203b3b20544f444f203a20436865636b2077686574686572206479206f722064782076616c75652069732076616c696420200a20202020202020203b3b2028617373657274732120283c206d696e2d64792064792920746f6f2d6d7563682d736c6970706167652d657272290a202020200a20202020202020203b3b2073656e64207820746f207661756c740a20202020202020203b3b286173736572747321202869732d6f6b2028636f6e74726163742d63616c6c3f20746f6b656e2d782d7472616974207472616e736665722064782074782d73656e646572202e616c65782d7661756c74206e6f6e652929207472616e736665722d782d6661696c65642d657272290a20202020202020203b3b2073656e6420792066726f6d207661756c740a20202020202020203b3b286173736572747321202869732d6f6b2028636f6e74726163742d63616c6c3f20746f6b656e2d792d7472616974207472616e73666572206479202e616c65782d7661756c742074782d73656e646572206e6f6e652929207472616e736665722d792d6661696c65642d657272290a20202020202020200a202020202020202028756e77726170212028636f6e74726163742d63616c6c3f20746f6b656e2d782d7472616974207472616e736665722064782074782d73656e646572202e616c65782d7661756c74206e6f6e6529207472616e736665722d782d6661696c65642d657272290a202020202020202028756e77726170212028636f6e74726163742d63616c6c3f20746f6b656e2d792d7472616974207472616e73666572206479202e616c65782d7661756c742074782d73656e646572206e6f6e6529207472616e736665722d792d6661696c65642d657272290a0a20202020202020203b3b20706f73742073657474696e670a2020202020202020286d61702d73657420706f6f6c732d646174612d6d6170207b20746f6b656e2d783a20746f6b656e2d782c20746f6b656e2d793a20746f6b656e2d792c207765696768742d783a207765696768742d782c207765696768742d793a207765696768742d79207d20706f6f6c2d75706461746564290a2020202020202020287072696e74207b206f626a6563743a2022706f6f6c222c20616374696f6e3a2022737761702d782d666f722d79222c20646174613a20706f6f6c2d75706461746564207d290a2020202020202020286f6b207b64783a2064782d6e65742d666565732c2064793a2064797d290a20202020290a290a0a28646566696e652d7075626c69632028737761702d792d666f722d782028746f6b656e2d782d7472616974203c66742d74726169743e292028746f6b656e2d792d7472616974203c66742d74726169743e2920287765696768742d782075696e742920287765696768742d792075696e7429202864792075696e7429290a0a20202020286c65740a2020202020202020280a20202020202020202020202028746f6b656e2d782028636f6e74726163742d6f6620746f6b656e2d782d747261697429290a20202020202020202020202028746f6b656e2d792028636f6e74726163742d6f6620746f6b656e2d792d747261697429290a20202020202020202020202028706f6f6c2028756e777261702120286d61702d6765743f20706f6f6c732d646174612d6d6170207b20746f6b656e2d783a20746f6b656e2d782c20746f6b656e2d793a20746f6b656e2d792c207765696768742d783a207765696768742d782c207765696768742d793a207765696768742d79207d2920696e76616c69642d706f6f6c2d65727229290a2020202020202020202020202862616c616e63652d7820286765742062616c616e63652d7820706f6f6c29290a2020202020202020202020202862616c616e63652d7920286765742062616c616e63652d7920706f6f6c29290a202020202020202020202020286665652d726174652d792028676574206665652d726174652d7920706f6f6c29290a0a2020202020202020202020203b3b20666565203d206479202a206665652d726174652d790a202020202020202020202020286665652028756e77726170212028636f6e74726163742d63616c6c3f202e6d6174682d66697865642d706f696e74206d756c2d7570206479206665652d726174652d7929206d6174682d63616c6c2d65727229290a2020202020202020202020202864792d6e65742d666565732028756e77726170212028636f6e74726163742d63616c6c3f202e6d6174682d66697865642d706f696e74207375622d66697865642064792066656529206d6174682d63616c6c2d65727229290a0a2020202020202020202020202864782028756e777261702120286765742d782d676976656e2d7920746f6b656e2d782d747261697420746f6b656e2d792d7472616974207765696768742d78207765696768742d792064792d6e65742d666565732920696e7465726e616c2d66756e6374696f6e2d63616c6c2d65727229290a0a20202020202020202020202028706f6f6c2d757064617465640a20202020202020202020202020202020286d6572676520706f6f6c0a20202020202020202020202020202020202020207b0a202020202020202020202020202020202020202062616c616e63652d783a2028756e77726170212028636f6e74726163742d63616c6c3f202e6d6174682d66697865642d706f696e74207375622d666978656420286765742062616c616e63652d7820706f6f6c2920647829206d6174682d63616c6c2d657272292c0a202020202020202020202020202020202020202062616c616e63652d793a2028756e77726170212028636f6e74726163742d63616c6c3f202e6d6174682d66697865642d706f696e74206164642d666978656420286765742062616c616e63652d7920706f6f6c292064792d6e65742d6665657329206d6174682d63616c6c2d657272292c0a20202020202020202020202020202020202020206665652d62616c616e63652d793a2028756e77726170212028636f6e74726163742d63616c6c3f202e6d6174682d66697865642d706f696e74206164642d6669786564206665652028676574206665652d62616c616e63652d7920706f6f6c2929206d6174682d63616c6c2d657272290a20202020202020202020202020202020202020207d0a20202020202020202020202020202020290a202020202020202020202020290a2020202020202020290a202020202020202028617373657274732120283e2064792075302920696e76616c69642d6c69717569646974792d657272290a20202020202020203b3b20544f444f203a20436865636b2077686574686572206479206f722064782076616c75652069732076616c696420200a20202020202020203b3b2028617373657274732120283c206d696e2d64792064792920746f6f2d6d7563682d736c6970706167652d657272290a0a20202020202020203b3b2073656e6420782066726f6d207661756c740a20202020202020203b3b286173736572747321202869732d6f6b2028636f6e74726163742d63616c6c3f20746f6b656e2d782d7472616974207472616e73666572206478202e616c65782d7661756c742074782d73656e646572206e6f6e652929207472616e736665722d782d6661696c65642d657272290a20202020202020203b3b2073656e64207920746f207661756c740a20202020202020203b3b286173736572747321202869732d6f6b2028636f6e74726163742d63616c6c3f20746f6b656e2d792d7472616974207472616e736665722064792074782d73656e646572202e616c65782d7661756c74206e6f6e652929207472616e736665722d792d6661696c65642d657272290a202020202020202028756e77726170212028636f6e74726163742d63616c6c3f20746f6b656e2d782d7472616974207472616e73666572206478202e616c65782d7661756c742074782d73656e646572206e6f6e6529207472616e736665722d782d6661696c65642d657272290a202020202020202028756e77726170212028636f6e74726163742d63616c6c3f20746f6b656e2d792d7472616974207472616e736665722064792074782d73656e646572202e616c65782d7661756c74206e6f6e6529207472616e736665722d792d6661696c65642d657272290a0a20202020202020203b3b20706f73742073657474696e670a2020202020202020286d61702d73657420706f6f6c732d646174612d6d6170207b20746f6b656e2d783a20746f6b656e2d782c20746f6b656e2d793a20746f6b656e2d792c207765696768742d783a207765696768742d782c207765696768742d793a207765696768742d79207d20706f6f6c2d75706461746564290a2020202020202020287072696e74207b206f626a6563743a2022706f6f6c222c20616374696f6e3a2022737761702d792d666f722d78222c20646174613a20706f6f6c2d75706461746564207d290a2020202020202020286f6b207b64783a2064782c2064793a2064792d6e65742d666565737d290a20202020290a290a0a28646566696e652d726561642d6f6e6c7920286765742d6665652d726174652d782028746f6b656e2d782d7472616974203c66742d74726169743e292028746f6b656e2d792d7472616974203c66742d74726169743e2920287765696768742d782075696e742920287765696768742d792075696e7429290a20202020286c6574200a2020202020202020280a20202020202020202020202028746f6b656e2d782028636f6e74726163742d6f6620746f6b656e2d782d747261697429290a20202020202020202020202028746f6b656e2d792028636f6e74726163742d6f6620746f6b656e2d792d747261697429292020202020202020202020200a20202020202020202020202028706f6f6c2028756e777261702120286d61702d6765743f20706f6f6c732d646174612d6d6170207b20746f6b656e2d783a20746f6b656e2d782c20746f6b656e2d793a20746f6b656e2d792c207765696768742d783a207765696768742d782c207765696768742d793a207765696768742d79207d2920696e76616c69642d706f6f6c2d65727229290a2020202020202020290a2020202020202020286f6b2028676574206665652d726174652d7820706f6f6c29290a20202020290a290a0a28646566696e652d726561642d6f6e6c7920286765742d6665652d726174652d792028746f6b656e2d782d7472616974203c66742d74726169743e292028746f6b656e2d792d7472616974203c66742d74726169743e2920287765696768742d782075696e742920287765696768742d792075696e7429290a20202020286c6574200a2020202020202020280a20202020202020202020202028746f6b656e2d782028636f6e74726163742d6f6620746f6b656e2d782d747261697429290a20202020202020202020202028746f6b656e2d792028636f6e74726163742d6f6620746f6b656e2d792d747261697429292020202020202020202020200a20202020202020202020202028706f6f6c2028756e777261702120286d61702d6765743f20706f6f6c732d646174612d6d6170207b20746f6b656e2d783a20746f6b656e2d782c20746f6b656e2d793a20746f6b656e2d792c207765696768742d783a207765696768742d782c207765696768742d793a207765696768742d79207d2920696e76616c69642d706f6f6c2d65727229290a2020202020202020290a2020202020202020286f6b2028676574206665652d726174652d7920706f6f6c29290a20202020290a290a0a28646566696e652d7075626c696320287365742d6665652d726174652d782028746f6b656e2d782d7472616974203c66742d74726169743e292028746f6b656e2d792d7472616974203c66742d74726169743e2920287765696768742d782075696e742920287765696768742d792075696e742920286665652d726174652d782075696e7429290a20202020286c6574200a2020202020202020280a20202020202020202020202028746f6b656e2d782028636f6e74726163742d6f6620746f6b656e2d782d747261697429290a20202020202020202020202028746f6b656e2d792028636f6e74726163742d6f6620746f6b656e2d792d747261697429292020202020202020202020200a20202020202020202020202028706f6f6c2028756e777261702120286d61702d6765743f20706f6f6c732d646174612d6d6170207b20746f6b656e2d783a20746f6b656e2d782c20746f6b656e2d793a20746f6b656e2d792c207765696768742d783a207765696768742d782c207765696768742d793a207765696768742d79207d2920696e76616c69642d706f6f6c2d65727229290a2020202020202020290a0a2020202020202020286d61702d73657420706f6f6c732d646174612d6d6170200a2020202020202020202020207b200a20202020202020202020202020202020746f6b656e2d783a20746f6b656e2d782c20746f6b656e2d793a20746f6b656e2d792c207765696768742d783a207765696768742d782c207765696768742d793a207765696768742d79200a2020202020202020202020207d0a202020202020202020202020286d6572676520706f6f6c207b206665652d726174652d783a206665652d726174652d78207d290a2020202020202020290a2020202020202020286f6b20747275652920202020200a20202020290a290a0a28646566696e652d7075626c696320287365742d6665652d726174652d792028746f6b656e2d782d7472616974203c66742d74726169743e292028746f6b656e2d792d7472616974203c66742d74726169743e2920287765696768742d782075696e742920287765696768742d792075696e742920286665652d726174652d792075696e7429290a20202020286c6574200a2020202020202020280a20202020202020202020202028746f6b656e2d782028636f6e74726163742d6f6620746f6b656e2d782d747261697429290a20202020202020202020202028746f6b656e2d792028636f6e74726163742d6f6620746f6b656e2d792d747261697429292020202020202020202020200a20202020202020202020202028706f6f6c2028756e777261702120286d61702d6765743f20706f6f6c732d646174612d6d6170207b20746f6b656e2d783a20746f6b656e2d782c20746f6b656e2d793a20746f6b656e2d792c207765696768742d783a207765696768742d782c207765696768742d793a207765696768742d79207d2920696e76616c69642d706f6f6c2d65727229290a2020202020202020290a0a2020202020202020286d61702d73657420706f6f6c732d646174612d6d6170200a2020202020202020202020207b200a20202020202020202020202020202020746f6b656e2d783a20746f6b656e2d782c20746f6b656e2d793a20746f6b656e2d792c207765696768742d783a207765696768742d782c207765696768742d793a207765696768742d79200a2020202020202020202020207d0a202020202020202020202020286d6572676520706f6f6c207b206665652d726174652d793a206665652d726174652d79207d290a2020202020202020290a2020202020202020286f6b20747275652920202020200a20202020290a290a0a28646566696e652d7075626c696320287365742d6665652d746f2d616464726573732028746f6b656e2d782d7472616974203c66742d74726169743e292028746f6b656e2d792d7472616974203c66742d74726169743e2920287765696768742d782075696e742920287765696768742d792075696e7429202861646472657373207072696e636970616c29290a20202020286c6574200a2020202020202020280a20202020202020202020202028746f6b656e2d782028636f6e74726163742d6f6620746f6b656e2d782d747261697429290a20202020202020202020202028746f6b656e2d792028636f6e74726163742d6f6620746f6b656e2d792d747261697429292020202020202020202020200a20202020202020202020202028706f6f6c2028756e777261702120286d61702d6765743f20706f6f6c732d646174612d6d6170207b20746f6b656e2d783a20746f6b656e2d782c20746f6b656e2d793a20746f6b656e2d792c207765696768742d783a207765696768742d782c207765696768742d793a207765696768742d79207d2920696e76616c69642d706f6f6c2d65727229290a2020202020202020290a0a2020202020202020286d61702d73657420706f6f6c732d646174612d6d6170200a2020202020202020202020207b200a20202020202020202020202020202020746f6b656e2d783a20746f6b656e2d782c20746f6b656e2d793a20746f6b656e2d792c207765696768742d783a207765696768742d782c207765696768742d793a207765696768742d79200a2020202020202020202020207d0a202020202020202020202020286d6572676520706f6f6c207b206665652d746f2d616464726573733a2061646472657373207d290a2020202020202020290a2020202020202020286f6b20747275652920202020200a20202020290a290a0a3b3b2072657475726e207072696e636970616c0a28646566696e652d726561642d6f6e6c7920286765742d6665652d746f2d616464726573732028746f6b656e2d782d7472616974203c66742d74726169743e292028746f6b656e2d792d7472616974203c66742d74726169743e2920287765696768742d782075696e742920287765696768742d792075696e7429290a20202020286c6574200a2020202020202020280a20202020202020202020202028746f6b656e2d782028636f6e74726163742d6f6620746f6b656e2d782d747261697429290a20202020202020202020202028746f6b656e2d792028636f6e74726163742d6f6620746f6b656e2d792d74726169742929202020202020202020202020202020200a20202020202020202020202028706f6f6c2028756e777261702120286d61702d6765743f20706f6f6c732d646174612d6d6170207b20746f6b656e2d783a20746f6b656e2d782c20746f6b656e2d793a20746f6b656e2d792c207765696768742d783a207765696768742d782c207765696768742d793a207765696768742d79207d2920696e76616c69642d706f6f6c2d65727229290a2020202020202020290a2020202020202020286f6b2028676574206665652d746f2d6164647265737320706f6f6c29290a20202020290a290a0a28646566696e652d726561642d6f6e6c7920286765742d666565732028746f6b656e2d782d7472616974203c66742d74726169743e292028746f6b656e2d792d7472616974203c66742d74726169743e2920287765696768742d782075696e742920287765696768742d792075696e7429290a20202020286c65740a2020202020202020280a20202020202020202020202028746f6b656e2d782028636f6e74726163742d6f6620746f6b656e2d782d747261697429290a20202020202020202020202028746f6b656e2d792028636f6e74726163742d6f6620746f6b656e2d792d7472616974292920202020202020202020202020200a20202020202020202020202028706f6f6c2028756e777261702120286d61702d6765743f20706f6f6c732d646174612d6d6170207b20746f6b656e2d783a20746f6b656e2d782c20746f6b656e2d793a20746f6b656e2d792c207765696768742d783a207765696768742d782c207765696768742d793a207765696768742d79207d2920696e76616c69642d706f6f6c2d65727229290a2020202020202020290a2020202020202020286f6b207b6665652d62616c616e63652d783a2028676574206665652d62616c616e63652d7820706f6f6c292c206665652d62616c616e63652d793a2028676574206665652d62616c616e63652d7920706f6f6c297d290a20202020290a290a0a3b3b2052657475726e732074686520666565206f662063757272656e74207820616e64207920616e64206d616b652062616c616e636520746f20302e0a28646566696e652d7075626c69632028636f6c6c6563742d666565732028746f6b656e2d782d7472616974203c66742d74726169743e292028746f6b656e2d792d7472616974203c66742d74726169743e2920287765696768742d782075696e742920287765696768742d792075696e7429290a202020200a20202020286c65740a2020202020202020280a20202020202020202020202028746f6b656e2d782028636f6e74726163742d6f6620746f6b656e2d782d747261697429290a20202020202020202020202028746f6b656e2d792028636f6e74726163742d6f6620746f6b656e2d792d747261697429290a20202020202020202020202028706f6f6c2028756e777261702120286d61702d6765743f20706f6f6c732d646174612d6d6170207b20746f6b656e2d783a20746f6b656e2d782c20746f6b656e2d793a20746f6b656e2d792c207765696768742d783a207765696768742d782c207765696768742d793a207765696768742d79207d2920696e76616c69642d706f6f6c2d65727229290a20202020202020202020202028616464726573732028676574206665652d746f2d6164647265737320706f6f6c29290a202020202020202020202020286665652d782028676574206665652d62616c616e63652d7820706f6f6c29290a202020202020202020202020286665652d792028676574206665652d62616c616e63652d7920706f6f6c29290a2020202020202020290a0a202020202020202028616e6420283e206665652d78207530292028756e77726170212028636f6e74726163742d63616c6c3f20746f6b656e2d782d7472616974207472616e73666572206665652d78202e616c65782d7661756c742061646472657373206e6f6e6529207472616e736665722d782d6661696c65642d65727229290a202020202020202028616e6420283e206665652d79207530292028756e77726170212028636f6e74726163742d63616c6c3f20746f6b656e2d792d7472616974207472616e73666572206665652d79202e616c65782d7661756c742061646472657373206e6f6e6529207472616e736665722d792d6661696c65642d65727229290a0a2020202020202020286d61702d73657420706f6f6c732d646174612d6d61700a20202020202020207b20746f6b656e2d783a20746f6b656e2d782c20746f6b656e2d793a20746f6b656e2d792c207765696768742d783a207765696768742d782c207765696768742d793a207765696768742d797d0a2020202020202020286d6572676520706f6f6c207b206665652d62616c616e63652d783a2075302c206665652d62616c616e63652d793a207530207d290a2020202020202020290a2020202020202020286f6b207b6665652d783a206665652d782c206665652d793a206665652d797d290a20202020290a290a0a28646566696e652d726561642d6f6e6c7920286765742d792d676976656e2d782028746f6b656e2d782d7472616974203c66742d74726169743e292028746f6b656e2d792d7472616974203c66742d74726169743e2920287765696768742d782075696e742920287765696768742d792075696e7429202864782075696e7429290a202020200a20202020286c6574200a2020202020202020280a202020202020202028746f6b656e2d782028636f6e74726163742d6f6620746f6b656e2d782d747261697429290a202020202020202028746f6b656e2d792028636f6e74726163742d6f6620746f6b656e2d792d747261697429290a202020202020202028706f6f6c2028756e777261702120286d61702d6765743f20706f6f6c732d646174612d6d6170207b20746f6b656e2d783a20746f6b656e2d782c20746f6b656e2d793a20746f6b656e2d792c207765696768742d783a207765696768742d782c207765696768742d793a207765696768742d79207d2920696e76616c69642d706f6f6c2d65727229290a20202020202020202862616c616e63652d7820286765742062616c616e63652d7820706f6f6c29290a20202020202020202862616c616e63652d7920286765742062616c616e63652d7920706f6f6c29290a2020202020202020290a202020202020202028636f6e74726163742d63616c6c3f202e77656967687465642d6571756174696f6e206765742d792d676976656e2d782062616c616e63652d782062616c616e63652d79207765696768742d78207765696768742d792064782920202020202020200a20202020290a290a0a28646566696e652d726561642d6f6e6c7920286765742d782d676976656e2d792028746f6b656e2d782d7472616974203c66742d74726169743e292028746f6b656e2d792d7472616974203c66742d74726169743e2920287765696768742d782075696e742920287765696768742d792075696e7429202864792075696e742929200a20202020286c6574200a2020202020202020280a202020202020202028746f6b656e2d782028636f6e74726163742d6f6620746f6b656e2d782d747261697429290a202020202020202028746f6b656e2d792028636f6e74726163742d6f6620746f6b656e2d792d747261697429290a202020202020202028706f6f6c2028756e777261702120286d61702d6765743f20706f6f6c732d646174612d6d6170207b20746f6b656e2d783a20746f6b656e2d782c20746f6b656e2d793a20746f6b656e2d792c207765696768742d783a207765696768742d782c207765696768742d793a207765696768742d79207d2920696e76616c69642d706f6f6c2d65727229290a20202020202020202862616c616e63652d7820286765742062616c616e63652d7820706f6f6c29290a20202020202020202862616c616e63652d7920286765742062616c616e63652d7920706f6f6c29290a2020202020202020290a202020202020202028636f6e74726163742d63616c6c3f202e77656967687465642d6571756174696f6e206765742d782d676976656e2d792062616c616e63652d782062616c616e63652d79207765696768742d78207765696768742d79206479290a20202020290a290a0a28646566696e652d726561642d6f6e6c7920286765742d782d676976656e2d70726963652028746f6b656e2d782d7472616974203c66742d74726169743e292028746f6b656e2d792d7472616974203c66742d74726169743e2920287765696768742d782075696e742920287765696768742d792075696e7429202870726963652075696e7429290a0a20202020286c6574200a2020202020202020280a202020202020202028746f6b656e2d782028636f6e74726163742d6f6620746f6b656e2d782d747261697429290a202020202020202028746f6b656e2d792028636f6e74726163742d6f6620746f6b656e2d792d747261697429290a202020202020202028706f6f6c2028756e777261702120286d61702d6765743f20706f6f6c732d646174612d6d6170207b20746f6b656e2d783a20746f6b656e2d782c20746f6b656e2d793a20746f6b656e2d792c207765696768742d783a207765696768742d782c207765696768742d793a207765696768742d79207d2920696e76616c69642d706f6f6c2d65727229290a20202020202020202862616c616e63652d7820286765742062616c616e63652d7820706f6f6c29290a20202020202020202862616c616e63652d7920286765742062616c616e63652d7920706f6f6c29290a2020202020202020290a202020202020202028636f6e74726163742d63616c6c3f202e77656967687465642d6571756174696f6e206765742d782d676976656e2d70726963652062616c616e63652d782062616c616e63652d79207765696768742d78207765696768742d79207072696365290a20202020290a290a0a28646566696e652d726561642d6f6e6c7920286765742d746f6b656e2d676976656e2d706f736974696f6e2028746f6b656e2d782d7472616974203c66742d74726169743e292028746f6b656e2d792d7472616974203c66742d74726169743e2920287765696768742d782075696e742920287765696768742d792075696e7429202864782075696e7429202864792075696e7429290a20202020286c6574200a2020202020202020280a202020202020202028746f6b656e2d782028636f6e74726163742d6f6620746f6b656e2d782d747261697429290a202020202020202028746f6b656e2d792028636f6e74726163742d6f6620746f6b656e2d792d747261697429290a202020202020202028706f6f6c2028756e777261702120286d61702d6765743f20706f6f6c732d646174612d6d6170207b20746f6b656e2d783a20746f6b656e2d782c20746f6b656e2d793a20746f6b656e2d792c207765696768742d783a207765696768742d782c207765696768742d793a207765696768742d79207d2920696e76616c69642d706f6f6c2d65727229290a20202020202020202862616c616e63652d7820286765742062616c616e63652d7820706f6f6c29290a20202020202020202862616c616e63652d7920286765742062616c616e63652d7920706f6f6c29290a202020202020202028746f74616c2d737570706c79202867657420746f74616c2d737570706c7920706f6f6c29290a2020202020202020290a202020202020202028636f6e74726163742d63616c6c3f202e77656967687465642d6571756174696f6e206765742d746f6b656e2d676976656e2d706f736974696f6e2062616c616e63652d782062616c616e63652d79207765696768742d78207765696768742d7920746f74616c2d737570706c79206478206479290a20202020290a0a290a0a28646566696e652d726561642d6f6e6c7920286765742d706f736974696f6e2d676976656e2d6d696e742028746f6b656e2d782d7472616974203c66742d74726169743e292028746f6b656e2d792d7472616974203c66742d74726169743e2920287765696768742d782075696e742920287765696768742d792075696e74292028746f6b656e2075696e7429290a0a20202020286c6574200a2020202020202020280a202020202020202028746f6b656e2d782028636f6e74726163742d6f6620746f6b656e2d782d747261697429290a202020202020202028746f6b656e2d792028636f6e74726163742d6f6620746f6b656e2d792d747261697429290a202020202020202028706f6f6c2028756e777261702120286d61702d6765743f20706f6f6c732d646174612d6d6170207b20746f6b656e2d783a20746f6b656e2d782c20746f6b656e2d793a20746f6b656e2d792c207765696768742d783a207765696768742d782c207765696768742d793a207765696768742d79207d2920696e76616c69642d706f6f6c2d65727229290a20202020202020202862616c616e63652d7820286765742062616c616e63652d7820706f6f6c29290a20202020202020202862616c616e63652d7920286765742062616c616e63652d7920706f6f6c29290a202020202020202028746f74616c2d737570706c79202867657420746f74616c2d737570706c7920706f6f6c292920202020202020200a2020202020202020290a202020202020202028636f6e74726163742d63616c6c3f202e77656967687465642d6571756174696f6e206765742d706f736974696f6e2d676976656e2d6d696e742062616c616e63652d782062616c616e63652d79207765696768742d78207765696768742d7920746f74616c2d737570706c7920746f6b656e290a20202020290a290a0a28646566696e652d726561642d6f6e6c7920286765742d706f736974696f6e2d676976656e2d6275726e2028746f6b656e2d782d7472616974203c66742d74726169743e292028746f6b656e2d792d7472616974203c66742d74726169743e2920287765696768742d782075696e742920287765696768742d792075696e74292028746f6b656e2075696e7429290a202020200a20202020286c6574200a2020202020202020280a202020202020202028746f6b656e2d782028636f6e74726163742d6f6620746f6b656e2d782d747261697429290a202020202020202028746f6b656e2d792028636f6e74726163742d6f6620746f6b656e2d792d747261697429290a202020202020202028706f6f6c2028756e777261702120286d61702d6765743f20706f6f6c732d646174612d6d6170207b20746f6b656e2d783a20746f6b656e2d782c20746f6b656e2d793a20746f6b656e2d792c207765696768742d783a207765696768742d782c207765696768742d793a207765696768742d79207d2920696e76616c69642d706f6f6c2d65727229290a20202020202020202862616c616e63652d7820286765742062616c616e63652d7820706f6f6c29290a20202020202020202862616c616e63652d7920286765742062616c616e63652d7920706f6f6c29290a202020202020202028746f74616c2d737570706c79202867657420746f74616c2d737570706c7920706f6f6c29290a2020202020202020290a202020202020202028636f6e74726163742d63616c6c3f202e77656967687465642d6571756174696f6e206765742d706f736974696f6e2d676976656e2d6275726e2062616c616e63652d782062616c616e63652d79207765696768742d78207765696768742d7920746f74616c2d737570706c7920746f6b656e290a20202020290a29
